ffa2
0078
0003
0030
ff63
ffb8
ff3d
008e
0021
fee9
ffe9
0048
0014
00ca
00c4
0042
0087
008d
0007
007a
ff34
0012
ff6e
0111
ffbd
007a
ff34
002a
003e
00b1
000b
003a
ff7b
fffe
ff5d
ffa3
005b
0083
0043
0023
feab
ffa0
ff77
ffd4
00c1
ffcf
ff8a
ffd4
ff32
000c
010e
ffe3
ff50
ff3a
0070
00c8
