ffc5
0016
0044
008c
0069
fff1
ffb4
ffdf
0040
ff9a
ff9e
ff72
ff23
0058
0017
005f
00fa
ffc7
ff37
ffde
0044
ffd3
008a
0035
00d1
00d9
004d
00ab
ff49
ff1e
00c7
0030
ffbf
ffdf
00f7
ffc7
0033
00a8
0066
0079
ff4d
feb1
ffb8
ffce
ff8d
0091
ffa6
012b
ff1c
ff5d
ff99
ff9e
ffe7
ff47
0023
ff7e

