0110011100000000
0010000000000000
0101110000000000
1101011100000000
0111010100000000
0011000000000000
0000011100000000
1001101000000000
1000100100000000
0011000000000000
0011111000000000
1010000100000000
0101000000000000
1100100100000000
1001011100000000
0110111100000000
1010011100000000
1001001100000000
0001100000000000
0111111000000000
0101011000000000
0010100000000000
0100111100000000
0010110000000000
0111000100000000
0101010100000000
0000111000000000
0111110000000000
0111101100000000
0101001100000000
0101001100000000
1011000000000000
1111001100000000
0110001100000000
1001010100000000
0000000100000000
0001100100000000
0010100100000000
0111001000000000
1001110100000000
0111011100000000
0011111000000000
0010101100000000
0101100000000000
1010001100000000
1000100000000000
1100011100000000
1110011100000000
0100101000000000
1010110100000000
0111010000000000
0001001000000000
0111111100000000
0011010100000000
1100100000000000
1101100100000000
1010010000000000
1100011100000000
0111111100000000
0111000100000000
0100010000000000
0001010000000000
0110111000000000
0111111000000000
1000011100000000
0000011100000000
0000101100000000
0110011000000000
0111101000000000
0110000100000000
0111010000000000
0001100000000000
