FE40
FFDE
FE9A
FEAF
0000
0050
FFDE
00A6
00CA
0002
FEDB
FE7D
FFBD
FFBD
0001
FEFA
FE42
FFBD
FFBD
0001
FE40
0054
FE9A
FEAF
0000
008E
008F
0089
0087
0001
FE7E
0140
FE6F
FEAF
0000
FF76
00CA
FED5
FEAF
0000
00CC
FFDE
00D2
010E
0002
FF76
FFDE
006C
0065
0001
