004F
FF80
0057
0056
000B
00C1
FF66
0012
FF75
0062
FEB1
FFB1
FFD2
FFBA
00BF
0023
0098
FF3C
FFC2
FF43
000A
FF5A
0080
0114
00D0
FFF6
00E8
0012
0041
FFBD
0004
012C
0020
00AD
013E
FED0
FFDF
FF45
FF15
FFE1
0095
FFDB
FFAA
0064
00C6
FF8A
FFDA
FE97
005F
FFAB
FF7E
FFE4
FF55
007E
0036
0139
