ffe1
ffa5
ff79
0077
ffd0
005c
ff73
002b
00bc
0065
ffa9
0048
ffa8
ff6f
ff69
0044
ff8d
ff7e
0017
ffaf
00a4
ff57
000a
ff92
006c
ffb2
0068
005e
0077
0098
ffc8
0004
0020
0000
0000
0012
001b
0000
0000
fffc
00a3
ff4c
ff21
0005
ff98
0030
008e
0027
0005
006f
00c5
008e
ff4a
ffbc
005b
ff44
ffbc
009f
0055
ffc8
000b
0080
ff73
0006
fffe
001f
ffdd
